const unsigned char model[] = {
  0x1c, 0x00, 0x00, 0x00, 0x54, 0x46, 0x4c, 0x33, 0x14, 0x00, 0x20, 0x00,
  0x1c, 0x00, 0x18, 0x00, 0x14, 0x00, 0x10, 0x00, 0x0c, 0x00, 0x00, 0x00,
  0x08, 0x00, 0x04, 0x00, 0x14, 0x00, 0x00, 0x00, 0x1c, 0x00, 0x00, 0x00,
  0x98, 0x00, 0x00, 0x00, 0xf0, 0x00, 0x00, 0x00, 0x90, 0x05, 0x00, 0x00,
  0xa0, 0x05, 0x00, 0x00, 0xa8, 0x0b, 0x00, 0x00, 0x03, 0x00, 0x00, 0x00,
  0x01, 0x00, 0x00, 0x00, 0x10, 0x00, 0x00, 0x00, 0x00, 0x00, 0x0a, 0x00,
  0x10, 0x00, 0x0c, 0x00, 0x08, 0x00, 0x04, 0x00, 0x0a, 0x00, 0x00, 0x00,
  0x0c, 0x00, 0x00, 0x00, 0x1c, 0x00, 0x00, 0x00, 0x3c, 0x00, 0x00, 0x00,
  0x0f, 0x00, 0x00, 0x00, 0x73, 0x65, 0x72, 0x76, 0x69, 0x6e, 0x67, 0x5f,
  0x64, 0x65, 0x66, 0x61, 0x75, 0x6c, 0x74, 0x00, 0x01, 0x00, 0x00, 0x00,
  0x04, 0x00, 0x00, 0x00, 0x90, 0xff, 0xff, 0xff, 0x0a, 0x00, 0x00, 0x00,
  0x04, 0x00, 0x00, 0x00, 0x08, 0x00, 0x00, 0x00, 0x64, 0x65, 0x6e, 0x73,
  0x65, 0x5f, 0x34, 0x31, 0x00, 0x00, 0x00, 0x00, 0x01, 0x00, 0x00, 0x00,
  0x04, 0x00, 0x00, 0x00, 0x56, 0xfa, 0xff, 0xff, 0x04, 0x00, 0x00, 0x00,
  0x0e, 0x00, 0x00, 0x00, 0x64, 0x65, 0x6e, 0x73, 0x65, 0x5f, 0x33, 0x39,
  0x5f, 0x69, 0x6e, 0x70, 0x75, 0x74, 0x00, 0x00, 0x02, 0x00, 0x00, 0x00,
  0x34, 0x00, 0x00, 0x00, 0x04, 0x00, 0x00, 0x00, 0xdc, 0xff, 0xff, 0xff,
  0x0d, 0x00, 0x00, 0x00, 0x04, 0x00, 0x00, 0x00, 0x13, 0x00, 0x00, 0x00,
  0x43, 0x4f, 0x4e, 0x56, 0x45, 0x52, 0x53, 0x49, 0x4f, 0x4e, 0x5f, 0x4d,
  0x45, 0x54, 0x41, 0x44, 0x41, 0x54, 0x41, 0x00, 0x08, 0x00, 0x0c, 0x00,
  0x08, 0x00, 0x04, 0x00, 0x08, 0x00, 0x00, 0x00, 0x0c, 0x00, 0x00, 0x00,
  0x04, 0x00, 0x00, 0x00, 0x13, 0x00, 0x00, 0x00, 0x6d, 0x69, 0x6e, 0x5f,
  0x72, 0x75, 0x6e, 0x74, 0x69, 0x6d, 0x65, 0x5f, 0x76, 0x65, 0x72, 0x73,
  0x69, 0x6f, 0x6e, 0x00, 0x0e, 0x00, 0x00, 0x00, 0x9c, 0x04, 0x00, 0x00,
  0x94, 0x04, 0x00, 0x00, 0x78, 0x04, 0x00, 0x00, 0x48, 0x04, 0x00, 0x00,
  0xf8, 0x03, 0x00, 0x00, 0x28, 0x03, 0x00, 0x00, 0x18, 0x01, 0x00, 0x00,
  0xa8, 0x00, 0x00, 0x00, 0xa0, 0x00, 0x00, 0x00, 0x98, 0x00, 0x00, 0x00,
  0x90, 0x00, 0x00, 0x00, 0x88, 0x00, 0x00, 0x00, 0x68, 0x00, 0x00, 0x00,
  0x04, 0x00, 0x00, 0x00, 0x0a, 0xfb, 0xff, 0xff, 0x04, 0x00, 0x00, 0x00,
  0x54, 0x00, 0x00, 0x00, 0x0c, 0x00, 0x00, 0x00, 0x08, 0x00, 0x0e, 0x00,
  0x08, 0x00, 0x04, 0x00, 0x08, 0x00, 0x00, 0x00, 0x10, 0x00, 0x00, 0x00,
  0x24, 0x00, 0x00, 0x00, 0x00, 0x00, 0x06, 0x00, 0x08, 0x00, 0x04, 0x00,
  0x06, 0x00, 0x00, 0x00, 0x04, 0x00, 0x00, 0x00, 0x00, 0x00, 0x00, 0x00,
  0x00, 0x00, 0x0a, 0x00, 0x10, 0x00, 0x0c, 0x00, 0x08, 0x00, 0x04, 0x00,
  0x0a, 0x00, 0x00, 0x00, 0x02, 0x00, 0x00, 0x00, 0x02, 0x00, 0x00, 0x00,
  0x04, 0x00, 0x00, 0x00, 0x06, 0x00, 0x00, 0x00, 0x32, 0x2e, 0x31, 0x35,
  0x2e, 0x30, 0x00, 0x00, 0x6a, 0xfb, 0xff, 0xff, 0x04, 0x00, 0x00, 0x00,
  0x10, 0x00, 0x00, 0x00, 0x31, 0x2e, 0x35, 0x2e, 0x30, 0x00, 0x00, 0x00,
  0x00, 0x00, 0x00, 0x00, 0x00, 0x00, 0x00, 0x00, 0x30, 0xf6, 0xff, 0xff,
  0x34, 0xf6, 0xff, 0xff, 0x38, 0xf6, 0xff, 0xff, 0x3c, 0xf6, 0xff, 0xff,
  0x96, 0xfb, 0xff, 0xff, 0x04, 0x00, 0x00, 0x00, 0x60, 0x00, 0x00, 0x00,
  0xcd, 0xce, 0xcf, 0xbe, 0xc1, 0xf2, 0xad, 0x3f, 0xf7, 0xff, 0xb4, 0xbe,
  0x1e, 0x19, 0xb3, 0x3f, 0xab, 0x10, 0xa4, 0xbd, 0x90, 0x4a, 0xb7, 0xbf,
  0xf2, 0x7d, 0xf6, 0xbf, 0x47, 0x51, 0x26, 0x3f, 0x1e, 0x25, 0x84, 0x3f,
  0x40, 0xc5, 0xdb, 0xbe, 0xd8, 0x80, 0x24, 0xbf, 0x5f, 0xc5, 0x82, 0x3f,
  0x61, 0x7d, 0x70, 0xc0, 0x82, 0x0a, 0x1e, 0x40, 0xc5, 0x21, 0xd3, 0x3f,
  0x45, 0x11, 0x24, 0xc0, 0x4f, 0x02, 0x02, 0xc0, 0x88, 0x49, 0x55, 0xbf,
  0xd9, 0x4a, 0x06, 0xbe, 0xdb, 0x2b, 0x00, 0xc0, 0xb8, 0xae, 0x8d, 0x3f,
  0x00, 0x40, 0x1e, 0xbf, 0xdd, 0x83, 0xe7, 0xbf, 0x86, 0x50, 0x2c, 0xbd,
  0x02, 0xfc, 0xff, 0xff, 0x04, 0x00, 0x00, 0x00, 0x00, 0x02, 0x00, 0x00,
  0xbb, 0xd9, 0x22, 0xc0, 0xa9, 0xa0, 0x2c, 0x40, 0xa9, 0xe6, 0x5d, 0xbe,
  0xe4, 0xd5, 0x44, 0x40, 0xc0, 0x2c, 0x59, 0x3d, 0xe4, 0x9e, 0xc5, 0xbf,
  0xea, 0xd3, 0x51, 0xbd, 0x86, 0xab, 0x41, 0xbe, 0x60, 0x20, 0xc2, 0x3d,
  0x67, 0x29, 0xab, 0x3d, 0x3d, 0xf4, 0x93, 0x3e, 0x36, 0x23, 0x5b, 0xbd,
  0xeb, 0x03, 0xf7, 0xbe, 0x2f, 0xca, 0xe9, 0xbf, 0x12, 0x0b, 0x67, 0xbe,
  0xc6, 0x30, 0x0c, 0x40, 0xaf, 0x0c, 0x04, 0xc0, 0x0b, 0x72, 0x08, 0xc0,
  0x13, 0xa3, 0x74, 0x3e, 0xee, 0xae, 0xf1, 0xbf, 0x00, 0x73, 0xb2, 0xbb,
  0xe4, 0x88, 0x38, 0xc0, 0xd4, 0x4b, 0xa6, 0x3e, 0x49, 0xa8, 0xd9, 0xbd,
  0x50, 0x46, 0xb3, 0xbe, 0x0c, 0x2f, 0xbc, 0x3f, 0xa3, 0xf0, 0x71, 0x3f,
  0x00, 0x76, 0xa4, 0x3f, 0x30, 0x95, 0x49, 0x3e, 0x38, 0x24, 0xd7, 0xbf,
  0x16, 0xf8, 0x80, 0x3e, 0xe6, 0x8f, 0xc8, 0xbf, 0x09, 0x75, 0x65, 0x3d,
  0xd4, 0xe9, 0x5f, 0xbe, 0xb2, 0xb4, 0x96, 0xbe, 0x9c, 0x84, 0xd3, 0xbe,
  0x04, 0x00, 0xf1, 0xbe, 0xca, 0xf2, 0xca, 0xbe, 0xe0, 0xec, 0x7e, 0x3e,
  0xf5, 0x14, 0xdc, 0x3e, 0x78, 0x7d, 0x77, 0x3e, 0xa6, 0x76, 0x90, 0xbe,
  0x75, 0xe4, 0xf4, 0xbd, 0xaf, 0x80, 0xc5, 0xbd, 0x15, 0xbf, 0x15, 0xbe,
  0xa0, 0xde, 0x55, 0xbe, 0x7f, 0x3c, 0x65, 0xbd, 0x50, 0x80, 0x84, 0x3e,
  0x31, 0xe2, 0x85, 0xc0, 0x77, 0xca, 0xbf, 0x3f, 0xf0, 0xf7, 0xc7, 0xbd,
  0x09, 0xd4, 0xb4, 0x3f, 0xb0, 0x52, 0xfa, 0x3d, 0xb3, 0x79, 0xaa, 0xc0,
  0x32, 0x58, 0xb9, 0xbe, 0xc5, 0x7a, 0x0c, 0x3f, 0x34, 0x14, 0xde, 0xbe,
  0x40, 0x14, 0xd7, 0x3f, 0x4c, 0x60, 0x22, 0x40, 0xd3, 0x43, 0x24, 0x40,
  0xa7, 0x65, 0xbf, 0x3c, 0x50, 0xac, 0x23, 0xc0, 0x4a, 0xd2, 0x0c, 0xbd,
  0x1a, 0x9b, 0xbd, 0x3f, 0xa2, 0x61, 0x1b, 0x40, 0x05, 0xee, 0xe8, 0xc0,
  0xcc, 0xd5, 0x7c, 0x3f, 0x84, 0xb7, 0xde, 0xc0, 0x84, 0x96, 0xf3, 0x3e,
  0x36, 0x0d, 0x0a, 0x40, 0x1a, 0x6c, 0x98, 0xbe, 0x55, 0xd0, 0x6f, 0x3d,
  0xe8, 0x9b, 0xe9, 0xbe, 0xb9, 0x9e, 0x96, 0xbe, 0x17, 0x04, 0x38, 0xbf,
  0xed, 0x55, 0x79, 0x3e, 0x41, 0x17, 0x3c, 0x3f, 0x4a, 0xde, 0xed, 0x3f,
  0x64, 0x63, 0x48, 0x3f, 0x33, 0xe9, 0xd0, 0xc0, 0xf5, 0x22, 0x4a, 0x3f,
  0xee, 0x2d, 0x50, 0x40, 0xd2, 0xd2, 0x92, 0xc0, 0x2e, 0x02, 0x39, 0x40,
  0xf8, 0x2e, 0xf7, 0x3e, 0x58, 0x0e, 0xfb, 0x3f, 0xfd, 0x5c, 0x97, 0x3e,
  0xa0, 0x0e, 0xdb, 0xbc, 0x30, 0xf0, 0x78, 0x3e, 0xf7, 0x4c, 0x24, 0x3f,
  0xb5, 0xed, 0xe4, 0x3e, 0xfc, 0xee, 0xa4, 0x3e, 0xd2, 0x55, 0x6b, 0xc0,
  0xe1, 0x28, 0x8c, 0x3e, 0xc0, 0x14, 0x81, 0xc0, 0x73, 0xe8, 0x31, 0x40,
  0x9c, 0xc8, 0x4b, 0xbf, 0x5f, 0x5d, 0x69, 0x40, 0xc2, 0xbe, 0x93, 0xc0,
  0x46, 0x46, 0x27, 0x40, 0xc8, 0x9f, 0xbd, 0x3e, 0x3f, 0x89, 0xdd, 0x3f,
  0xb9, 0x1d, 0xe3, 0x3e, 0x34, 0x4d, 0xe6, 0xbd, 0x64, 0x59, 0xb6, 0x3e,
  0x04, 0xbd, 0x3d, 0x3f, 0xc8, 0x27, 0x03, 0x3f, 0x89, 0xf2, 0x1b, 0x3f,
  0xf2, 0x52, 0x65, 0xc0, 0x2d, 0xe3, 0x18, 0xbe, 0x06, 0xcc, 0x83, 0xc0,
  0x29, 0xaf, 0x30, 0x40, 0x94, 0xa0, 0x99, 0xbf, 0xd5, 0xf6, 0x27, 0xc0,
  0x23, 0xab, 0x71, 0x3f, 0xd8, 0x4a, 0x0a, 0xc0, 0xc0, 0x52, 0xab, 0xbc,
  0x38, 0x71, 0x3b, 0xc0, 0xaa, 0x87, 0x6e, 0x3d, 0x06, 0xee, 0x4c, 0x3e,
  0x90, 0xbc, 0xc0, 0xbe, 0x55, 0x22, 0xdd, 0x3e, 0xa5, 0xa2, 0x1e, 0x3e,
  0x76, 0x42, 0x8c, 0x3d, 0x00, 0x67, 0x65, 0x3f, 0x58, 0x40, 0x61, 0xbf,
  0x79, 0xd8, 0x56, 0x3f, 0x26, 0x21, 0xcd, 0xbf, 0x0e, 0xfe, 0xff, 0xff,
  0x04, 0x00, 0x00, 0x00, 0xc0, 0x00, 0x00, 0x00, 0x71, 0x76, 0x3f, 0x3f,
  0xad, 0xad, 0xd0, 0xbf, 0xca, 0xc5, 0x53, 0x3c, 0xe4, 0xfc, 0xa3, 0xbf,
  0x8d, 0x72, 0x29, 0xbe, 0x65, 0xc0, 0x7c, 0xbd, 0xd3, 0xe3, 0x8d, 0x3f,
  0x96, 0xf1, 0x35, 0xbd, 0xe2, 0xd2, 0x21, 0x3d, 0x86, 0x16, 0xb9, 0xbf,
  0x08, 0xf3, 0x33, 0xbe, 0xdd, 0xd8, 0xb6, 0xbc, 0x34, 0x83, 0x91, 0xbd,
  0xef, 0x0b, 0x04, 0xbf, 0x48, 0x5f, 0x07, 0xbf, 0x1b, 0x62, 0xcd, 0x3e,
  0x8d, 0x83, 0xce, 0xbf, 0x63, 0x27, 0x6c, 0x3e, 0x33, 0x3c, 0x40, 0x3e,
  0x50, 0x76, 0x14, 0xbf, 0x20, 0xa5, 0x90, 0xbe, 0x23, 0x53, 0xc2, 0xbe,
  0x88, 0xdc, 0x0f, 0xbe, 0x92, 0xfc, 0xd5, 0x3e, 0x4a, 0xe9, 0x97, 0xbe,
  0x18, 0x62, 0x84, 0xbd, 0x36, 0xa6, 0x07, 0xbf, 0xb7, 0xa3, 0x20, 0xbf,
  0x53, 0xe1, 0x91, 0x3f, 0xa5, 0x27, 0xa6, 0x3d, 0x7d, 0x9f, 0x84, 0xbf,
  0x5d, 0x1a, 0x5e, 0x3f, 0xf9, 0xec, 0x19, 0xbe, 0x24, 0xee, 0x64, 0xbe,
  0x81, 0x97, 0xb4, 0x3f, 0xc8, 0xce, 0x40, 0xbe, 0xe3, 0x3a, 0x9f, 0x3f,
  0x20, 0x2f, 0x29, 0xbd, 0x56, 0x63, 0xa7, 0x3d, 0x5a, 0xa9, 0x24, 0x3f,
  0x77, 0xba, 0xae, 0xbf, 0xb6, 0xb4, 0x2f, 0x3d, 0x68, 0x2d, 0xb4, 0x3f,
  0x11, 0x12, 0xd1, 0x39, 0x92, 0x2c, 0xbd, 0x3d, 0x10, 0xb0, 0xc7, 0xbf,
  0x72, 0xf5, 0x00, 0xbe, 0x65, 0xce, 0x04, 0x3d, 0xda, 0xfe, 0xff, 0xff,
  0x04, 0x00, 0x00, 0x00, 0x40, 0x00, 0x00, 0x00, 0x91, 0xc4, 0x8a, 0x3d,
  0x70, 0xe9, 0xe2, 0x3e, 0x95, 0x3f, 0xa1, 0xbe, 0x9a, 0xb7, 0xea, 0x3e,
  0x00, 0x00, 0x00, 0x00, 0xaf, 0x6c, 0x8f, 0x3e, 0xba, 0x44, 0x25, 0xbe,
  0x3c, 0xe4, 0xab, 0xbd, 0x00, 0x00, 0x00, 0x00, 0xdc, 0x47, 0x5b, 0xbd,
  0x41, 0x3e, 0x8f, 0x3e, 0xd9, 0x02, 0xd5, 0xbe, 0x9e, 0xfe, 0xaa, 0xbe,
  0x86, 0x81, 0xf9, 0x3d, 0xc9, 0x04, 0xaa, 0xbe, 0x3f, 0xeb, 0xff, 0x3e,
  0x26, 0xff, 0xff, 0xff, 0x04, 0x00, 0x00, 0x00, 0x20, 0x00, 0x00, 0x00,
  0x97, 0xf1, 0x08, 0x3f, 0x4d, 0x43, 0x97, 0x3e, 0x3d, 0xcc, 0xd1, 0xbd,
  0xc3, 0xb8, 0x59, 0x3e, 0x4f, 0x45, 0x04, 0x3f, 0xa9, 0x31, 0xd9, 0x3e,
  0x3f, 0xe3, 0xa2, 0x3e, 0x8f, 0x61, 0x10, 0x3f, 0x52, 0xff, 0xff, 0xff,
  0x04, 0x00, 0x00, 0x00, 0x0c, 0x00, 0x00, 0x00, 0x41, 0xe7, 0x9e, 0xbe,
  0x85, 0xcc, 0xed, 0xbe, 0x5c, 0x7c, 0xdf, 0x3e, 0x14, 0xfa, 0xff, 0xff,
  0x18, 0xfa, 0xff, 0xff, 0x0f, 0x00, 0x00, 0x00, 0x4d, 0x4c, 0x49, 0x52,
  0x20, 0x43, 0x6f, 0x6e, 0x76, 0x65, 0x72, 0x74, 0x65, 0x64, 0x2e, 0x00,
  0x01, 0x00, 0x00, 0x00, 0x14, 0x00, 0x00, 0x00, 0x00, 0x00, 0x0e, 0x00,
  0x18, 0x00, 0x14, 0x00, 0x10, 0x00, 0x0c, 0x00, 0x08, 0x00, 0x04, 0x00,
  0x0e, 0x00, 0x00, 0x00, 0x14, 0x00, 0x00, 0x00, 0x1c, 0x00, 0x00, 0x00,
  0x24, 0x01, 0x00, 0x00, 0x28, 0x01, 0x00, 0x00, 0x2c, 0x01, 0x00, 0x00,
  0x04, 0x00, 0x00, 0x00, 0x6d, 0x61, 0x69, 0x6e, 0x00, 0x00, 0x00, 0x00,
  0x04, 0x00, 0x00, 0x00, 0xcc, 0x00, 0x00, 0x00, 0x84, 0x00, 0x00, 0x00,
  0x50, 0x00, 0x00, 0x00, 0x14, 0x00, 0x00, 0x00, 0x00, 0x00, 0x0e, 0x00,
  0x1a, 0x00, 0x14, 0x00, 0x10, 0x00, 0x0c, 0x00, 0x0b, 0x00, 0x04, 0x00,
  0x0e, 0x00, 0x00, 0x00, 0x1c, 0x00, 0x00, 0x00, 0x00, 0x00, 0x00, 0x09,
  0x1c, 0x00, 0x00, 0x00, 0x20, 0x00, 0x00, 0x00, 0x01, 0x00, 0x00, 0x00,
  0x00, 0x00, 0x06, 0x00, 0x08, 0x00, 0x04, 0x00, 0x06, 0x00, 0x00, 0x00,
  0x00, 0x00, 0x80, 0x3f, 0x01, 0x00, 0x00, 0x00, 0x0a, 0x00, 0x00, 0x00,
  0x01, 0x00, 0x00, 0x00, 0x09, 0x00, 0x00, 0x00, 0x9a, 0xff, 0xff, 0xff,
  0x10, 0x00, 0x00, 0x00, 0x00, 0x00, 0x00, 0x08, 0x0c, 0x00, 0x00, 0x00,
  0x10, 0x00, 0x00, 0x00, 0xdc, 0xfa, 0xff, 0xff, 0x01, 0x00, 0x00, 0x00,
  0x09, 0x00, 0x00, 0x00, 0x03, 0x00, 0x00, 0x00, 0x08, 0x00, 0x00, 0x00,
  0x06, 0x00, 0x00, 0x00, 0x01, 0x00, 0x00, 0x00, 0xca, 0xff, 0xff, 0xff,
  0x10, 0x00, 0x00, 0x00, 0x00, 0x00, 0x00, 0x08, 0x10, 0x00, 0x00, 0x00,
  0x14, 0x00, 0x00, 0x00, 0xba, 0xff, 0xff, 0xff, 0x00, 0x00, 0x00, 0x01,
  0x01, 0x00, 0x00, 0x00, 0x08, 0x00, 0x00, 0x00, 0x03, 0x00, 0x00, 0x00,
  0x07, 0x00, 0x00, 0x00, 0x05, 0x00, 0x00, 0x00, 0x02, 0x00, 0x00, 0x00,
  0x00, 0x00, 0x0e, 0x00, 0x16, 0x00, 0x00, 0x00, 0x10, 0x00, 0x0c, 0x00,
  0x0b, 0x00, 0x04, 0x00, 0x0e, 0x00, 0x00, 0x00, 0x18, 0x00, 0x00, 0x00,
  0x00, 0x00, 0x00, 0x08, 0x18, 0x00, 0x00, 0x00, 0x1c, 0x00, 0x00, 0x00,
  0x00, 0x00, 0x06, 0x00, 0x08, 0x00, 0x07, 0x00, 0x06, 0x00, 0x00, 0x00,
  0x00, 0x00, 0x00, 0x01, 0x01, 0x00, 0x00, 0x00, 0x07, 0x00, 0x00, 0x00,
  0x03, 0x00, 0x00, 0x00, 0x00, 0x00, 0x00, 0x00, 0x04, 0x00, 0x00, 0x00,
  0x03, 0x00, 0x00, 0x00, 0x01, 0x00, 0x00, 0x00, 0x0a, 0x00, 0x00, 0x00,
  0x01, 0x00, 0x00, 0x00, 0x00, 0x00, 0x00, 0x00, 0x0b, 0x00, 0x00, 0x00,
  0x4c, 0x04, 0x00, 0x00, 0xd8, 0x03, 0x00, 0x00, 0x64, 0x03, 0x00, 0x00,
  0x08, 0x03, 0x00, 0x00, 0xb8, 0x02, 0x00, 0x00, 0x68, 0x02, 0x00, 0x00,
  0x18, 0x02, 0x00, 0x00, 0x7c, 0x01, 0x00, 0x00, 0xe0, 0x00, 0x00, 0x00,
  0x60, 0x00, 0x00, 0x00, 0x04, 0x00, 0x00, 0x00, 0xf6, 0xfb, 0xff, 0xff,
  0x00, 0x00, 0x00, 0x01, 0x14, 0x00, 0x00, 0x00, 0x1c, 0x00, 0x00, 0x00,
  0x1c, 0x00, 0x00, 0x00, 0x0b, 0x00, 0x00, 0x00, 0x34, 0x00, 0x00, 0x00,
  0x02, 0x00, 0x00, 0x00, 0xff, 0xff, 0xff, 0xff, 0x03, 0x00, 0x00, 0x00,
  0xe0, 0xfb, 0xff, 0xff, 0x19, 0x00, 0x00, 0x00, 0x53, 0x74, 0x61, 0x74,
  0x65, 0x66, 0x75, 0x6c, 0x50, 0x61, 0x72, 0x74, 0x69, 0x74, 0x69, 0x6f,
  0x6e, 0x65, 0x64, 0x43, 0x61, 0x6c, 0x6c, 0x3a, 0x30, 0x00, 0x00, 0x00,
  0x02, 0x00, 0x00, 0x00, 0x01, 0x00, 0x00, 0x00, 0x03, 0x00, 0x00, 0x00,
  0x4e, 0xfc, 0xff, 0xff, 0x00, 0x00, 0x00, 0x01, 0x14, 0x00, 0x00, 0x00,
  0x1c, 0x00, 0x00, 0x00, 0x1c, 0x00, 0x00, 0x00, 0x0a, 0x00, 0x00, 0x00,
  0x58, 0x00, 0x00, 0x00, 0x02, 0x00, 0x00, 0x00, 0xff, 0xff, 0xff, 0xff,
  0x03, 0x00, 0x00, 0x00, 0x38, 0xfc, 0xff, 0xff, 0x3c, 0x00, 0x00, 0x00,
  0x73, 0x65, 0x71, 0x75, 0x65, 0x6e, 0x74, 0x69, 0x61, 0x6c, 0x5f, 0x31,
  0x33, 0x2f, 0x64, 0x65, 0x6e, 0x73, 0x65, 0x5f, 0x34, 0x31, 0x2f, 0x4d,
  0x61, 0x74, 0x4d, 0x75, 0x6c, 0x3b, 0x73, 0x65, 0x71, 0x75, 0x65, 0x6e,
  0x74, 0x69, 0x61, 0x6c, 0x5f, 0x31, 0x33, 0x2f, 0x64, 0x65, 0x6e, 0x73,
  0x65, 0x5f, 0x34, 0x31, 0x2f, 0x42, 0x69, 0x61, 0x73, 0x41, 0x64, 0x64,
  0x00, 0x00, 0x00, 0x00, 0x02, 0x00, 0x00, 0x00, 0x01, 0x00, 0x00, 0x00,
  0x03, 0x00, 0x00, 0x00, 0xca, 0xfc, 0xff, 0xff, 0x00, 0x00, 0x00, 0x01,
  0x14, 0x00, 0x00, 0x00, 0x1c, 0x00, 0x00, 0x00, 0x1c, 0x00, 0x00, 0x00,
  0x09, 0x00, 0x00, 0x00, 0x74, 0x00, 0x00, 0x00, 0x02, 0x00, 0x00, 0x00,
  0xff, 0xff, 0xff, 0xff, 0x08, 0x00, 0x00, 0x00, 0xb4, 0xfc, 0xff, 0xff,
  0x58, 0x00, 0x00, 0x00, 0x73, 0x65, 0x71, 0x75, 0x65, 0x6e, 0x74, 0x69,
  0x61, 0x6c, 0x5f, 0x31, 0x33, 0x2f, 0x64, 0x65, 0x6e, 0x73, 0x65, 0x5f,
  0x34, 0x30, 0x2f, 0x4d, 0x61, 0x74, 0x4d, 0x75, 0x6c, 0x3b, 0x73, 0x65,
  0x71, 0x75, 0x65, 0x6e, 0x74, 0x69, 0x61, 0x6c, 0x5f, 0x31, 0x33, 0x2f,
  0x64, 0x65, 0x6e, 0x73, 0x65, 0x5f, 0x34, 0x30, 0x2f, 0x52, 0x65, 0x6c,
  0x75, 0x3b, 0x73, 0x65, 0x71, 0x75, 0x65, 0x6e, 0x74, 0x69, 0x61, 0x6c,
  0x5f, 0x31, 0x33, 0x2f, 0x64, 0x65, 0x6e, 0x73, 0x65, 0x5f, 0x34, 0x30,
  0x2f, 0x42, 0x69, 0x61, 0x73, 0x41, 0x64, 0x64, 0x00, 0x00, 0x00, 0x00,
  0x02, 0x00, 0x00, 0x00, 0x01, 0x00, 0x00, 0x00, 0x08, 0x00, 0x00, 0x00,
  0x62, 0xfd, 0xff, 0xff, 0x00, 0x00, 0x00, 0x01, 0x14, 0x00, 0x00, 0x00,
  0x1c, 0x00, 0x00, 0x00, 0x1c, 0x00, 0x00, 0x00, 0x08, 0x00, 0x00, 0x00,
  0x74, 0x00, 0x00, 0x00, 0x02, 0x00, 0x00, 0x00, 0xff, 0xff, 0xff, 0xff,
  0x10, 0x00, 0x00, 0x00, 0x4c, 0xfd, 0xff, 0xff, 0x58, 0x00, 0x00, 0x00,
  0x73, 0x65, 0x71, 0x75, 0x65, 0x6e, 0x74, 0x69, 0x61, 0x6c, 0x5f, 0x31,
  0x33, 0x2f, 0x64, 0x65, 0x6e, 0x73, 0x65, 0x5f, 0x33, 0x39, 0x2f, 0x4d,
  0x61, 0x74, 0x4d, 0x75, 0x6c, 0x3b, 0x73, 0x65, 0x71, 0x75, 0x65, 0x6e,
  0x74, 0x69, 0x61, 0x6c, 0x5f, 0x31, 0x33, 0x2f, 0x64, 0x65, 0x6e, 0x73,
  0x65, 0x5f, 0x33, 0x39, 0x2f, 0x52, 0x65, 0x6c, 0x75, 0x3b, 0x73, 0x65,
  0x71, 0x75, 0x65, 0x6e, 0x74, 0x69, 0x61, 0x6c, 0x5f, 0x31, 0x33, 0x2f,
  0x64, 0x65, 0x6e, 0x73, 0x65, 0x5f, 0x33, 0x39, 0x2f, 0x42, 0x69, 0x61,
  0x73, 0x41, 0x64, 0x64, 0x00, 0x00, 0x00, 0x00, 0x02, 0x00, 0x00, 0x00,
  0x01, 0x00, 0x00, 0x00, 0x10, 0x00, 0x00, 0x00, 0x6a, 0xfe, 0xff, 0xff,
  0x00, 0x00, 0x00, 0x01, 0x10, 0x00, 0x00, 0x00, 0x10, 0x00, 0x00, 0x00,
  0x07, 0x00, 0x00, 0x00, 0x2c, 0x00, 0x00, 0x00, 0xd4, 0xfd, 0xff, 0xff,
  0x1d, 0x00, 0x00, 0x00, 0x73, 0x65, 0x71, 0x75, 0x65, 0x6e, 0x74, 0x69,
  0x61, 0x6c, 0x5f, 0x31, 0x33, 0x2f, 0x64, 0x65, 0x6e, 0x73, 0x65, 0x5f,
  0x34, 0x31, 0x2f, 0x4d, 0x61, 0x74, 0x4d, 0x75, 0x6c, 0x00, 0x00, 0x00,
  0x02, 0x00, 0x00, 0x00, 0x03, 0x00, 0x00, 0x00, 0x08, 0x00, 0x00, 0x00,
  0xb6, 0xfe, 0xff, 0xff, 0x00, 0x00, 0x00, 0x01, 0x10, 0x00, 0x00, 0x00,
  0x10, 0x00, 0x00, 0x00, 0x06, 0x00, 0x00, 0x00, 0x2c, 0x00, 0x00, 0x00,
  0x20, 0xfe, 0xff, 0xff, 0x1d, 0x00, 0x00, 0x00, 0x73, 0x65, 0x71, 0x75,
  0x65, 0x6e, 0x74, 0x69, 0x61, 0x6c, 0x5f, 0x31, 0x33, 0x2f, 0x64, 0x65,
  0x6e, 0x73, 0x65, 0x5f, 0x34, 0x30, 0x2f, 0x4d, 0x61, 0x74, 0x4d, 0x75,
  0x6c, 0x00, 0x00, 0x00, 0x02, 0x00, 0x00, 0x00, 0x08, 0x00, 0x00, 0x00,
  0x10, 0x00, 0x00, 0x00, 0x02, 0xff, 0xff, 0xff, 0x00, 0x00, 0x00, 0x01,
  0x10, 0x00, 0x00, 0x00, 0x10, 0x00, 0x00, 0x00, 0x05, 0x00, 0x00, 0x00,
  0x2c, 0x00, 0x00, 0x00, 0x6c, 0xfe, 0xff, 0xff, 0x1d, 0x00, 0x00, 0x00,
  0x73, 0x65, 0x71, 0x75, 0x65, 0x6e, 0x74, 0x69, 0x61, 0x6c, 0x5f, 0x31,
  0x33, 0x2f, 0x64, 0x65, 0x6e, 0x73, 0x65, 0x5f, 0x33, 0x39, 0x2f, 0x4d,
  0x61, 0x74, 0x4d, 0x75, 0x6c, 0x00, 0x00, 0x00, 0x02, 0x00, 0x00, 0x00,
  0x10, 0x00, 0x00, 0x00, 0x03, 0x00, 0x00, 0x00, 0x4e, 0xff, 0xff, 0xff,
  0x00, 0x00, 0x00, 0x01, 0x10, 0x00, 0x00, 0x00, 0x10, 0x00, 0x00, 0x00,
  0x04, 0x00, 0x00, 0x00, 0x3c, 0x00, 0x00, 0x00, 0xb8, 0xfe, 0xff, 0xff,
  0x2d, 0x00, 0x00, 0x00, 0x73, 0x65, 0x71, 0x75, 0x65, 0x6e, 0x74, 0x69,
  0x61, 0x6c, 0x5f, 0x31, 0x33, 0x2f, 0x64, 0x65, 0x6e, 0x73, 0x65, 0x5f,
  0x33, 0x39, 0x2f, 0x42, 0x69, 0x61, 0x73, 0x41, 0x64, 0x64, 0x2f, 0x52,
  0x65, 0x61, 0x64, 0x56, 0x61, 0x72, 0x69, 0x61, 0x62, 0x6c, 0x65, 0x4f,
  0x70, 0x00, 0x00, 0x00, 0x01, 0x00, 0x00, 0x00, 0x10, 0x00, 0x00, 0x00,
  0xa6, 0xff, 0xff, 0xff, 0x00, 0x00, 0x00, 0x01, 0x10, 0x00, 0x00, 0x00,
  0x10, 0x00, 0x00, 0x00, 0x03, 0x00, 0x00, 0x00, 0x3c, 0x00, 0x00, 0x00,
  0x10, 0xff, 0xff, 0xff, 0x2d, 0x00, 0x00, 0x00, 0x73, 0x65, 0x71, 0x75,
  0x65, 0x6e, 0x74, 0x69, 0x61, 0x6c, 0x5f, 0x31, 0x33, 0x2f, 0x64, 0x65,
  0x6e, 0x73, 0x65, 0x5f, 0x34, 0x30, 0x2f, 0x42, 0x69, 0x61, 0x73, 0x41,
  0x64, 0x64, 0x2f, 0x52, 0x65, 0x61, 0x64, 0x56, 0x61, 0x72, 0x69, 0x61,
  0x62, 0x6c, 0x65, 0x4f, 0x70, 0x00, 0x00, 0x00, 0x01, 0x00, 0x00, 0x00,
  0x08, 0x00, 0x00, 0x00, 0x00, 0x00, 0x16, 0x00, 0x18, 0x00, 0x14, 0x00,
  0x00, 0x00, 0x10, 0x00, 0x0c, 0x00, 0x08, 0x00, 0x00, 0x00, 0x00, 0x00,
  0x00, 0x00, 0x07, 0x00, 0x16, 0x00, 0x00, 0x00, 0x00, 0x00, 0x00, 0x01,
  0x10, 0x00, 0x00, 0x00, 0x10, 0x00, 0x00, 0x00, 0x02, 0x00, 0x00, 0x00,
  0x3c, 0x00, 0x00, 0x00, 0x80, 0xff, 0xff, 0xff, 0x2d, 0x00, 0x00, 0x00,
  0x73, 0x65, 0x71, 0x75, 0x65, 0x6e, 0x74, 0x69, 0x61, 0x6c, 0x5f, 0x31,
  0x33, 0x2f, 0x64, 0x65, 0x6e, 0x73, 0x65, 0x5f, 0x34, 0x31, 0x2f, 0x42,
  0x69, 0x61, 0x73, 0x41, 0x64, 0x64, 0x2f, 0x52, 0x65, 0x61, 0x64, 0x56,
  0x61, 0x72, 0x69, 0x61, 0x62, 0x6c, 0x65, 0x4f, 0x70, 0x00, 0x00, 0x00,
  0x01, 0x00, 0x00, 0x00, 0x03, 0x00, 0x00, 0x00, 0x00, 0x00, 0x16, 0x00,
  0x1c, 0x00, 0x18, 0x00, 0x00, 0x00, 0x14, 0x00, 0x10, 0x00, 0x0c, 0x00,
  0x00, 0x00, 0x00, 0x00, 0x08, 0x00, 0x07, 0x00, 0x16, 0x00, 0x00, 0x00,
  0x00, 0x00, 0x00, 0x01, 0x14, 0x00, 0x00, 0x00, 0x20, 0x00, 0x00, 0x00,
  0x20, 0x00, 0x00, 0x00, 0x01, 0x00, 0x00, 0x00, 0x40, 0x00, 0x00, 0x00,
  0x02, 0x00, 0x00, 0x00, 0xff, 0xff, 0xff, 0xff, 0x03, 0x00, 0x00, 0x00,
  0x04, 0x00, 0x04, 0x00, 0x04, 0x00, 0x00, 0x00, 0x20, 0x00, 0x00, 0x00,
  0x73, 0x65, 0x72, 0x76, 0x69, 0x6e, 0x67, 0x5f, 0x64, 0x65, 0x66, 0x61,
  0x75, 0x6c, 0x74, 0x5f, 0x64, 0x65, 0x6e, 0x73, 0x65, 0x5f, 0x33, 0x39,
  0x5f, 0x69, 0x6e, 0x70, 0x75, 0x74, 0x3a, 0x30, 0x00, 0x00, 0x00, 0x00,
  0x02, 0x00, 0x00, 0x00, 0x01, 0x00, 0x00, 0x00, 0x03, 0x00, 0x00, 0x00,
  0x02, 0x00, 0x00, 0x00, 0x20, 0x00, 0x00, 0x00, 0x04, 0x00, 0x00, 0x00,
  0xf4, 0xff, 0xff, 0xff, 0x19, 0x00, 0x00, 0x00, 0x00, 0x00, 0x00, 0x19,
  0x0c, 0x00, 0x0c, 0x00, 0x0b, 0x00, 0x00, 0x00, 0x00, 0x00, 0x04, 0x00,
  0x0c, 0x00, 0x00, 0x00, 0x09, 0x00, 0x00, 0x00, 0x00, 0x00, 0x00, 0x09
};
